#pragma once
#include <cstdint>
alignas(16) const unsigned char g_model[]={
 0x20,0x00,0x00,0x00,0x54,0x46,0x4c,0x33,0x00,0x00,0x00,0x00,
 0x14,0x00,0x20,0x00,0x1c,0x00,0x18,0x00,0x14,0x00,0x10,0x00,
 0x0c,0x00,0x00,0x00,0x08,0x00,0x04,0x00,0x14,0x00,0x00,0x00,
 0x1c,0x00,0x00,0x00,0x8c,0x00,0x00,0x00,0xe4,0x00,0x00,0x00,
 0x60,0x07,0x00,0x00,0x70,0x07,0x00,0x00,0xa8,0x12,0x00,0x00,
 0x03,0x00,0x00,0x00,0x01,0x00,0x00,0x00,0x04,0x00,0x00,0x00,
 0x52,0xf8,0xff,0xff,0x0c,0x00,0x00,0x00,0x1c,0x00,0x00,0x00,
 0x3c,0x00,0x00,0x00,0x0f,0x00,0x00,0x00,0x73,0x65,0x72,0x76,
 0x69,0x6e,0x67,0x5f,0x64,0x65,0x66,0x61,0x75,0x6c,0x74,0x00,
 0x01,0x00,0x00,0x00,0x04,0x00,0x00,0x00,0x90,0xff,0xff,0xff,
 0x0a,0x00,0x00,0x00,0x04,0x00,0x00,0x00,0x08,0x00,0x00,0x00,
 0x6f,0x75,0x74,0x70,0x75,0x74,0x5f,0x30,0x00,0x00,0x00,0x00,
 0x01,0x00,0x00,0x00,0x04,0x00,0x00,0x00,0x26,0xf9,0xff,0xff,
 0x04,0x00,0x00,0x00,0x0c,0x00,0x00,0x00,0x6b,0x65,0x72,0x61,
 0x73,0x5f,0x74,0x65,0x6e,0x73,0x6f,0x72,0x00,0x00,0x00,0x00,
 0x02,0x00,0x00,0x00,0x34,0x00,0x00,0x00,0x04,0x00,0x00,0x00,
 0xdc,0xff,0xff,0xff,0x0d,0x00,0x00,0x00,0x04,0x00,0x00,0x00,
 0x13,0x00,0x00,0x00,0x43,0x4f,0x4e,0x56,0x45,0x52,0x53,0x49,
 0x4f,0x4e,0x5f,0x4d,0x45,0x54,0x41,0x44,0x41,0x54,0x41,0x00,
 0x08,0x00,0x0c,0x00,0x08,0x00,0x04,0x00,0x08,0x00,0x00,0x00,
 0x0c,0x00,0x00,0x00,0x04,0x00,0x00,0x00,0x13,0x00,0x00,0x00,
 0x6d,0x69,0x6e,0x5f,0x72,0x75,0x6e,0x74,0x69,0x6d,0x65,0x5f,
 0x76,0x65,0x72,0x73,0x69,0x6f,0x6e,0x00,0x0e,0x00,0x00,0x00,
 0x78,0x06,0x00,0x00,0x70,0x06,0x00,0x00,0x5c,0x06,0x00,0x00,
 0x34,0x06,0x00,0x00,0xe4,0x05,0x00,0x00,0xd4,0x03,0x00,0x00,
 0x44,0x03,0x00,0x00,0xb4,0x00,0x00,0x00,0xac,0x00,0x00,0x00,
 0xa4,0x00,0x00,0x00,0x9c,0x00,0x00,0x00,0x94,0x00,0x00,0x00,
 0x74,0x00,0x00,0x00,0x04,0x00,0x00,0x00,0xda,0xf9,0xff,0xff,
 0x04,0x00,0x00,0x00,0x60,0x00,0x00,0x00,0x0c,0x00,0x00,0x00,
 0x08,0x00,0x0e,0x00,0x08,0x00,0x04,0x00,0x08,0x00,0x00,0x00,
 0x10,0x00,0x00,0x00,0x28,0x00,0x00,0x00,0x00,0x00,0x06,0x00,
 0x08,0x00,0x04,0x00,0x06,0x00,0x00,0x00,0x04,0x00,0x00,0x00,
 0x01,0x00,0x00,0x00,0xeb,0x03,0x00,0x00,0x0c,0x00,0x18,0x00,
 0x14,0x00,0x10,0x00,0x0c,0x00,0x04,0x00,0x0c,0x00,0x00,0x00,
 0x78,0xb6,0x7f,0xc1,0x93,0x35,0xa5,0xe9,0x01,0x00,0x00,0x00,
 0x02,0x00,0x00,0x00,0x04,0x00,0x00,0x00,0x06,0x00,0x00,0x00,
 0x32,0x2e,0x32,0x30,0x2e,0x30,0x00,0x00,0x46,0xfa,0xff,0xff,
 0x04,0x00,0x00,0x00,0x10,0x00,0x00,0x00,0x31,0x2e,0x31,0x34,
 0x2e,0x30,0x00,0x00,0x00,0x00,0x00,0x00,0x00,0x00,0x00,0x00,
 0xa0,0xf9,0xff,0xff,0xa4,0xf9,0xff,0xff,0xa8,0xf9,0xff,0xff,
 0xac,0xf9,0xff,0xff,0x72,0xfa,0xff,0xff,0x04,0x00,0x00,0x00,
 0x80,0x02,0x00,0x00,0xa0,0x90,0x81,0x8e,0x0f,0xd7,0xe3,0xc0,
 0xfe,0x94,0x4f,0x13,0x61,0x08,0x25,0x5a,0x04,0xc7,0xde,0xb4,
 0xd6,0xc2,0x53,0x49,0xf6,0x76,0x91,0x81,0xb0,0x8b,0x35,0xfd,
 0xda,0xbf,0xd6,0x79,0xc0,0x50,0x2b,0xc8,0xd4,0x2d,0x10,0xd4,
 0x04,0xe8,0x81,0xa1,0x44,0x06,0xcf,0xe6,0xf2,0xa2,0x32,0x0d,
 0x12,0x93,0x97,0xd6,0xfb,0x13,0xf5,0xfe,0xa8,0xb1,0x81,0xb5,
 0x2c,0xe5,0xd0,0x23,0x8b,0xb5,0x1e,0xe9,0xc2,0x03,0x8e,0xa3,
 0x5c,0xcf,0x06,0x33,0x54,0xaf,0x74,0x06,0xf3,0xe2,0xf0,0xd5,
 0x96,0xfe,0x39,0x74,0xfa,0x7f,0x30,0x7d,0x2b,0xa4,0x28,0xce,
 0x38,0xf5,0x27,0x1b,0xb5,0x2a,0x56,0x72,0x5f,0xbc,0xb8,0x7f,
 0x25,0xec,0xd8,0xb3,0x18,0xd5,0x95,0x91,0x81,0x17,0x9a,0x82,
 0xea,0xdf,0x8f,0xad,0x2e,0x29,0x22,0x2e,0xab,0x14,0xab,0xe4,
 0x39,0x70,0x23,0x35,0x29,0x4a,0xe7,0x63,0x16,0x6b,0xd5,0x04,
 0x38,0x0a,0x74,0x3e,0x2d,0x7f,0xf7,0x2c,0x14,0x9a,0x8c,0xf0,
 0x19,0xfd,0xc6,0xc0,0xb1,0x24,0x81,0x18,0xaf,0x90,0x13,0x9e,
 0x1c,0x1b,0xe8,0x10,0xd9,0x96,0x19,0xd7,0xc6,0x18,0x31,0xfa,
 0xb4,0x0a,0xff,0xe6,0x9d,0xfc,0x81,0x56,0xea,0x97,0xdb,0x35,
 0x1e,0xd2,0xfe,0x1d,0xc4,0xc7,0xfc,0xfb,0xa5,0xe3,0x3a,0xb4,
 0xff,0x2c,0x02,0xe7,0x81,0xc0,0xe5,0x08,0xd3,0xf9,0xa0,0xba,
 0xac,0x22,0x5a,0xd7,0xd6,0x93,0x41,0xb6,0xc4,0xc5,0x4a,0xb1,
 0xca,0x0c,0x81,0xff,0x67,0x1c,0x15,0xc5,0xfb,0x34,0x3d,0xe8,
 0x0e,0xe2,0x28,0x1b,0x64,0xcc,0x6c,0x4f,0x70,0xc4,0xe4,0x7f,
 0xed,0x30,0x27,0xc8,0x20,0x99,0x15,0x0f,0x05,0xc3,0x88,0xa6,
 0xc8,0x9b,0xcd,0x19,0x18,0xef,0x81,0x04,0x66,0x93,0x81,0xca,
 0x81,0xd6,0x2d,0x0e,0x8d,0x51,0x46,0x33,0xed,0xa7,0x19,0xe0,
 0xdf,0x3b,0xa6,0xd5,0x16,0x3d,0x50,0xf5,0x23,0x09,0x48,0x1b,
 0x7f,0x72,0x4c,0x59,0x2a,0x2c,0xd4,0x24,0x60,0x38,0x1d,0xfb,
 0x19,0x81,0xbe,0xf2,0xfe,0xfc,0x77,0x0d,0xd8,0x56,0x45,0xb8,
 0x7b,0x0a,0xd1,0x3c,0x9c,0xf9,0x05,0x61,0xcb,0x81,0xa0,0xed,
 0x9e,0xd9,0xf8,0x9f,0x4b,0xcb,0xa9,0xa5,0xe1,0xaf,0xa1,0x23,
 0x1c,0xfe,0xd9,0xae,0x9a,0x7f,0x37,0x76,0x05,0xfc,0x22,0xde,
 0xc6,0x2d,0x69,0x35,0xcf,0xa8,0x0b,0x03,0xe1,0x45,0xab,0x68,
 0x07,0x9a,0xe0,0xf0,0x74,0x74,0x6a,0x7f,0xcf,0x67,0xe9,0xbb,
 0x62,0xc1,0xf6,0xa2,0x69,0x8b,0x96,0x69,0x16,0xca,0x7f,0x65,
 0xba,0x2f,0x41,0xb9,0x06,0xca,0x01,0xe8,0x54,0x37,0xcf,0xff,
 0x74,0xcc,0xc1,0x2f,0xaf,0x52,0x3e,0x3e,0x55,0x1f,0x04,0x54,
 0x7f,0x3b,0x33,0x6e,0x6e,0x64,0x3a,0x3c,0xf7,0x3a,0xfd,0xf7,
 0x24,0x5f,0xb1,0x96,0xa4,0xdc,0xeb,0x13,0x81,0x92,0xcd,0x03,
 0xc6,0xc5,0x26,0xd6,0xb0,0x0b,0xce,0xde,0x0d,0x22,0x10,0x7f,
 0x6c,0x52,0x55,0x6c,0x19,0x42,0x54,0x34,0x20,0x51,0xd5,0x29,
 0x34,0x54,0xf3,0x26,0xa6,0x81,0x2d,0xd2,0xbe,0xf8,0xac,0x35,
 0x16,0xe8,0xa1,0xe9,0xb9,0xc7,0xab,0xd1,0xd6,0xa9,0x29,0xce,
 0xd1,0xca,0x81,0x0a,0x46,0x83,0xf0,0xf0,0xaa,0xd8,0xb3,0x87,
 0xe0,0xe8,0x22,0x6f,0xbf,0xfc,0x64,0x94,0x60,0x13,0x46,0x6f,
 0xdd,0x68,0x0b,0x20,0xd3,0xc1,0x24,0x7f,0x71,0x3b,0xce,0x4d,
 0x6b,0x12,0x5b,0x38,0x8e,0xdd,0x37,0xcb,0x0c,0x0f,0xe9,0x06,
 0xad,0xeb,0x2a,0xa8,0xe8,0x0b,0x81,0x26,0xaf,0xf9,0xd5,0xa8,
 0x3a,0x60,0x6d,0x78,0x7f,0x02,0x43,0xd2,0xb8,0xb1,0x2b,0x22,
 0x36,0x31,0x45,0xeb,0x3c,0xc9,0x3d,0x45,0x30,0xf5,0x44,0x53,
 0x01,0x37,0x2f,0x27,0x7f,0xd3,0x58,0xac,0x38,0x0f,0xfc,0x2b,
 0x08,0x42,0x2f,0xc3,0x0f,0xdb,0x49,0x2f,0x60,0x69,0xe3,0x35,
 0x5a,0xb2,0x44,0x5f,0xc4,0x50,0xd4,0xb6,0x7f,0xe2,0x77,0x5b,
 0x3f,0x5c,0x08,0x17,0x3b,0x97,0x85,0xf3,0x8b,0x8a,0x5b,0x95,
 0x73,0xec,0xd7,0x9c,0xea,0x38,0x06,0x81,0xfe,0xfc,0xff,0xff,
 0x04,0x00,0x00,0x00,0x80,0x00,0x00,0x00,0xae,0x06,0x00,0x00,
 0x61,0xff,0xff,0xff,0x99,0x00,0x00,0x00,0x69,0x03,0x00,0x00,
 0x1c,0x04,0x00,0x00,0x58,0x00,0x00,0x00,0x73,0x07,0x00,0x00,
 0xbf,0x05,0x00,0x00,0x12,0x06,0x00,0x00,0x78,0x02,0x00,0x00,
 0xd7,0x04,0x00,0x00,0x1c,0x03,0x00,0x00,0x31,0x00,0x00,0x00,
 0xc9,0x01,0x00,0x00,0x30,0x00,0x00,0x00,0xfd,0x05,0x00,0x00,
 0xb5,0x03,0x00,0x00,0x8f,0x06,0x00,0x00,0xa4,0x02,0x00,0x00,
 0x8b,0x00,0x00,0x00,0x52,0x00,0x00,0x00,0xeb,0x05,0x00,0x00,
 0xc2,0x04,0x00,0x00,0x74,0x06,0x00,0x00,0x1d,0x07,0x00,0x00,
 0x6f,0x05,0x00,0x00,0xdd,0x06,0x00,0x00,0xe2,0x02,0x00,0x00,
 0x66,0x02,0x00,0x00,0x69,0xfb,0xff,0xff,0x18,0x08,0x00,0x00,
 0xa2,0x05,0x00,0x00,0x8a,0xfd,0xff,0xff,0x04,0x00,0x00,0x00,
 0x00,0x02,0x00,0x00,0xfa,0xf5,0xb5,0xb6,0x68,0xe9,0xbb,0x15,
 0x10,0x31,0xc8,0x38,0x63,0x24,0xc6,0x57,0xe3,0xc5,0x4e,0x46,
 0x4f,0x54,0x8f,0x63,0xc7,0x2a,0x7f,0x97,0x6a,0xfd,0x3c,0xd8,
 0xe4,0xfe,0x2c,0x6c,0xd6,0xff,0x7f,0xf8,0xe0,0x66,0x31,0x67,
 0x22,0x6e,0xf6,0x13,0x4f,0xfe,0x2b,0x2d,0xcc,0xab,0x70,0xc4,
 0x1d,0x0b,0xd8,0x78,0x38,0x2f,0x1c,0xf3,0x17,0xdb,0x44,0xe9,
 0x33,0x26,0x10,0x77,0xb8,0xa7,0xde,0xad,0xdb,0xe6,0x3a,0xf0,
 0x47,0xf3,0x48,0xd8,0x41,0x33,0x28,0x7f,0xfa,0xd3,0x07,0x06,
 0xe9,0xd8,0x49,0xc4,0x45,0x2c,0x59,0xca,0x24,0x42,0xe0,0x17,
 0x5f,0xd8,0x1e,0x6b,0x3d,0xb0,0xad,0xe7,0x03,0xce,0x81,0x31,
 0x47,0xe6,0x38,0xfc,0xe9,0x65,0x4b,0x68,0xe2,0xb3,0xd8,0xe1,
 0x79,0x04,0x18,0xfe,0x13,0xe2,0x19,0xb4,0x45,0x0b,0x1d,0xfe,
 0xeb,0x10,0x2d,0xce,0x64,0x7e,0x12,0xc0,0xfb,0xb4,0x7f,0xf3,
 0x2f,0x0e,0x1c,0x74,0xf5,0xbd,0xf0,0x42,0xe5,0x0a,0x48,0x26,
 0x43,0x01,0xb0,0x7a,0x9d,0xa6,0xb2,0xde,0x59,0x2f,0xab,0x38,
 0x50,0x43,0x17,0x6f,0xde,0xde,0xf1,0x7f,0xd1,0x02,0xff,0xfc,
 0x45,0x64,0x31,0xb4,0x4d,0x49,0x45,0x68,0x0c,0xf7,0x28,0xa7,
 0x12,0x1f,0x4d,0x38,0xed,0xef,0x5e,0xc1,0xf5,0xf3,0x38,0x26,
 0x0b,0xfb,0x7f,0xf8,0x60,0x43,0xc9,0x45,0x03,0x03,0xd1,0xde,
 0x01,0xd5,0xc1,0x23,0x66,0x23,0xce,0x7f,0x1a,0x2c,0x24,0x20,
 0x63,0xbe,0x9a,0x4a,0xec,0xb9,0xe8,0xd0,0x02,0x4d,0x93,0x59,
 0x39,0xc7,0x32,0xc3,0x5d,0x11,0x3c,0x02,0x48,0x66,0x32,0x00,
 0x48,0x4a,0x46,0x93,0x54,0x39,0x59,0x42,0xd5,0xda,0x7f,0xcb,
 0x35,0x0d,0x24,0x13,0xed,0x01,0x76,0xd2,0x6d,0x13,0xae,0xf0,
 0x26,0x8f,0x14,0xf3,0x4a,0xfd,0x87,0xa5,0xe1,0x4f,0xd4,0xe5,
 0x79,0xd7,0x0b,0x50,0xdd,0xfc,0xea,0xe8,0x47,0x90,0x06,0x7f,
 0x45,0x0d,0xf1,0x7a,0xcf,0xfa,0xee,0xff,0x66,0xf9,0xed,0xe8,
 0xf2,0xc8,0x4e,0xde,0x54,0x1d,0xf5,0x53,0xb7,0xe4,0x44,0xd3,
 0x4f,0x28,0xa8,0x7f,0x32,0x14,0xca,0xfe,0x45,0x12,0x07,0x09,
 0x95,0xd7,0x43,0xc2,0xc6,0xeb,0x71,0xf8,0xb6,0x02,0xd5,0xbb,
 0xe5,0x2b,0x08,0x73,0x2e,0xa2,0x86,0x43,0x50,0xc1,0xa4,0x5f,
 0xd4,0xe7,0x3b,0x5d,0x7f,0x28,0x15,0x1d,0x4a,0xbb,0x66,0xa8,
 0x00,0x75,0x79,0x67,0x9e,0xfa,0xdb,0xda,0x1b,0x46,0x04,0x7f,
 0x4f,0xcd,0x00,0x03,0xc6,0xe4,0x39,0x78,0x4a,0xe7,0x4e,0xd6,
 0x62,0xeb,0x0f,0x09,0x3d,0x86,0x1b,0xbb,0x1b,0xc5,0x68,0x04,
 0x33,0x3a,0xd0,0x18,0x81,0x5b,0x00,0xb9,0xe0,0x0e,0xfa,0x22,
 0x61,0xe2,0xab,0xd1,0x3d,0xb4,0x3c,0xb3,0xdc,0x00,0x10,0xbf,
 0x33,0xa5,0x61,0xe2,0x70,0xe3,0x91,0xa3,0x4c,0x51,0x50,0x2b,
 0xe6,0x69,0xf3,0x9b,0x31,0x6d,0x64,0xf2,0xe4,0x66,0x06,0xfb,
 0x6c,0x7f,0xcc,0x0e,0xde,0xc3,0x1d,0xdc,0x51,0x1a,0x3c,0xf3,
 0xdb,0xcb,0xd2,0xfd,0x63,0xfc,0xce,0x60,0x34,0x1b,0x75,0xa0,
 0x69,0xf0,0x33,0xd0,0xd5,0xf9,0x1b,0xb2,0x23,0x4f,0x67,0xf1,
 0xfc,0xd2,0xfb,0xed,0x49,0x7f,0x04,0x5c,0xd3,0xb3,0xc6,0x5a,
 0x96,0xff,0xff,0xff,0x04,0x00,0x00,0x00,0x40,0x00,0x00,0x00,
 0x5f,0x05,0x00,0x00,0x78,0x04,0x00,0x00,0x3f,0x00,0x00,0x00,
 0xc5,0xff,0xff,0xff,0xc9,0x07,0x00,0x00,0x37,0x04,0x00,0x00,
 0x45,0x06,0x00,0x00,0xcb,0x05,0x00,0x00,0xf4,0x06,0x00,0x00,
 0xc1,0x01,0x00,0x00,0x4e,0x02,0x00,0x00,0x59,0x06,0x00,0x00,
 0x25,0x00,0x00,0x00,0xd1,0xfb,0xff,0xff,0xfd,0x05,0x00,0x00,
 0xbc,0x05,0x00,0x00,0xe2,0xff,0xff,0xff,0x04,0x00,0x00,0x00,
 0x10,0x00,0x00,0x00,0x7f,0xa1,0x6d,0xc0,0xc4,0x3e,0xd4,0x3b,
 0xc6,0x2b,0x74,0x5c,0x60,0x26,0xc0,0xa5,0x00,0x00,0x06,0x00,
 0x08,0x00,0x04,0x00,0x06,0x00,0x00,0x00,0x04,0x00,0x00,0x00,
 0x04,0x00,0x00,0x00,0x0a,0xff,0xff,0xff,0x54,0xff,0xff,0xff,
 0x58,0xff,0xff,0xff,0x0f,0x00,0x00,0x00,0x4d,0x4c,0x49,0x52,
 0x20,0x43,0x6f,0x6e,0x76,0x65,0x72,0x74,0x65,0x64,0x2e,0x00,
 0x01,0x00,0x00,0x00,0x14,0x00,0x00,0x00,0x00,0x00,0x0e,0x00,
 0x18,0x00,0x14,0x00,0x10,0x00,0x0c,0x00,0x08,0x00,0x04,0x00,
 0x0e,0x00,0x00,0x00,0x14,0x00,0x00,0x00,0x1c,0x00,0x00,0x00,
 0x1c,0x01,0x00,0x00,0x20,0x01,0x00,0x00,0x24,0x01,0x00,0x00,
 0x04,0x00,0x00,0x00,0x6d,0x61,0x69,0x6e,0x00,0x00,0x00,0x00,
 0x04,0x00,0x00,0x00,0xc4,0x00,0x00,0x00,0x7c,0x00,0x00,0x00,
 0x34,0x00,0x00,0x00,0x10,0x00,0x00,0x00,0x00,0x00,0x0a,0x00,
 0x10,0x00,0x0c,0x00,0x08,0x00,0x04,0x00,0x0a,0x00,0x00,0x00,
 0x0c,0x00,0x00,0x00,0x10,0x00,0x00,0x00,0x01,0x00,0x00,0x00,
 0x01,0x00,0x00,0x00,0x0a,0x00,0x00,0x00,0x01,0x00,0x00,0x00,
 0x09,0x00,0x00,0x00,0xca,0xff,0xff,0xff,0x14,0x00,0x00,0x00,
 0x00,0x00,0x00,0x08,0x10,0x00,0x00,0x00,0x14,0x00,0x00,0x00,
 0x04,0x00,0x04,0x00,0x04,0x00,0x00,0x00,0x01,0x00,0x00,0x00,
 0x09,0x00,0x00,0x00,0x03,0x00,0x00,0x00,0x08,0x00,0x00,0x00,
 0x02,0x00,0x00,0x00,0x01,0x00,0x00,0x00,0x00,0x00,0x0e,0x00,
 0x14,0x00,0x00,0x00,0x10,0x00,0x0c,0x00,0x0b,0x00,0x04,0x00,
 0x0e,0x00,0x00,0x00,0x10,0x00,0x00,0x00,0x00,0x00,0x00,0x08,
 0x10,0x00,0x00,0x00,0x14,0x00,0x00,0x00,0xba,0xff,0xff,0xff,
 0x00,0x00,0x00,0x01,0x01,0x00,0x00,0x00,0x08,0x00,0x00,0x00,
 0x03,0x00,0x00,0x00,0x07,0x00,0x00,0x00,0x04,0x00,0x00,0x00,
 0x03,0x00,0x00,0x00,0x00,0x00,0x0e,0x00,0x16,0x00,0x00,0x00,
 0x10,0x00,0x0c,0x00,0x0b,0x00,0x04,0x00,0x0e,0x00,0x00,0x00,
 0x18,0x00,0x00,0x00,0x00,0x00,0x00,0x08,0x18,0x00,0x00,0x00,
 0x1c,0x00,0x00,0x00,0x00,0x00,0x06,0x00,0x08,0x00,0x07,0x00,
 0x06,0x00,0x00,0x00,0x00,0x00,0x00,0x01,0x01,0x00,0x00,0x00,
 0x07,0x00,0x00,0x00,0x03,0x00,0x00,0x00,0x00,0x00,0x00,0x00,
 0x06,0x00,0x00,0x00,0x05,0x00,0x00,0x00,0x01,0x00,0x00,0x00,
 0x0a,0x00,0x00,0x00,0x01,0x00,0x00,0x00,0x00,0x00,0x00,0x00,
 0x0b,0x00,0x00,0x00,0x60,0x09,0x00,0x00,0xe8,0x08,0x00,0x00,
 0x6c,0x08,0x00,0x00,0x58,0x07,0x00,0x00,0x3c,0x06,0x00,0x00,
 0x68,0x04,0x00,0x00,0x8c,0x02,0x00,0x00,0xd8,0x01,0x00,0x00,
 0x1c,0x01,0x00,0x00,0x80,0x00,0x00,0x00,0x04,0x00,0x00,0x00,
 0xe2,0xf6,0xff,0xff,0x00,0x00,0x00,0x01,0x18,0x00,0x00,0x00,
 0x20,0x00,0x00,0x00,0x3c,0x00,0x00,0x00,0x0b,0x00,0x00,0x00,
 0x00,0x00,0x00,0x09,0x50,0x00,0x00,0x00,0x02,0x00,0x00,0x00,
 0xff,0xff,0xff,0xff,0x01,0x00,0x00,0x00,0xcc,0xf6,0xff,0xff,
 0x08,0x00,0x00,0x00,0x10,0x00,0x00,0x00,0x01,0x00,0x00,0x00,
 0x80,0xff,0xff,0xff,0xff,0xff,0xff,0xff,0x01,0x00,0x00,0x00,
 0x00,0x00,0x80,0x3b,0x1b,0x00,0x00,0x00,0x53,0x74,0x61,0x74,
 0x65,0x66,0x75,0x6c,0x50,0x61,0x72,0x74,0x69,0x74,0x69,0x6f,
 0x6e,0x65,0x64,0x43,0x61,0x6c,0x6c,0x5f,0x31,0x3a,0x30,0x00,
 0x02,0x00,0x00,0x00,0x01,0x00,0x00,0x00,0x01,0x00,0x00,0x00,
 0x5a,0xf7,0xff,0xff,0x00,0x00,0x00,0x01,0x18,0x00,0x00,0x00,
 0x20,0x00,0x00,0x00,0x3c,0x00,0x00,0x00,0x0a,0x00,0x00,0x00,
 0x00,0x00,0x00,0x09,0x70,0x00,0x00,0x00,0x02,0x00,0x00,0x00,
 0xff,0xff,0xff,0xff,0x01,0x00,0x00,0x00,0x44,0xf7,0xff,0xff,
 0x08,0x00,0x00,0x00,0x10,0x00,0x00,0x00,0x01,0x00,0x00,0x00,
 0xef,0xff,0xff,0xff,0xff,0xff,0xff,0xff,0x01,0x00,0x00,0x00,
 0x91,0x74,0x4d,0x3e,0x38,0x00,0x00,0x00,0x73,0x65,0x71,0x75,
 0x65,0x6e,0x74,0x69,0x61,0x6c,0x5f,0x31,0x2f,0x64,0x65,0x6e,
 0x73,0x65,0x5f,0x32,0x5f,0x31,0x2f,0x4d,0x61,0x74,0x4d,0x75,
 0x6c,0x3b,0x73,0x65,0x71,0x75,0x65,0x6e,0x74,0x69,0x61,0x6c,
 0x5f,0x31,0x2f,0x64,0x65,0x6e,0x73,0x65,0x5f,0x32,0x5f,0x31,
 0x2f,0x41,0x64,0x64,0x00,0x00,0x00,0x00,0x02,0x00,0x00,0x00,
 0x01,0x00,0x00,0x00,0x01,0x00,0x00,0x00,0xf2,0xf7,0xff,0xff,
 0x00,0x00,0x00,0x01,0x18,0x00,0x00,0x00,0x20,0x00,0x00,0x00,
 0x3c,0x00,0x00,0x00,0x09,0x00,0x00,0x00,0x00,0x00,0x00,0x09,
 0x90,0x00,0x00,0x00,0x02,0x00,0x00,0x00,0xff,0xff,0xff,0xff,
 0x10,0x00,0x00,0x00,0xdc,0xf7,0xff,0xff,0x08,0x00,0x00,0x00,
 0x10,0x00,0x00,0x00,0x01,0x00,0x00,0x00,0x80,0xff,0xff,0xff,
 0xff,0xff,0xff,0xff,0x01,0x00,0x00,0x00,0x0f,0xaf,0x41,0x3d,
 0x58,0x00,0x00,0x00,0x73,0x65,0x71,0x75,0x65,0x6e,0x74,0x69,
 0x61,0x6c,0x5f,0x31,0x2f,0x64,0x65,0x6e,0x73,0x65,0x5f,0x31,
 0x5f,0x32,0x2f,0x4d,0x61,0x74,0x4d,0x75,0x6c,0x3b,0x73,0x65,
 0x71,0x75,0x65,0x6e,0x74,0x69,0x61,0x6c,0x5f,0x31,0x2f,0x64,
 0x65,0x6e,0x73,0x65,0x5f,0x31,0x5f,0x32,0x2f,0x52,0x65,0x6c,
 0x75,0x3b,0x73,0x65,0x71,0x75,0x65,0x6e,0x74,0x69,0x61,0x6c,
 0x5f,0x31,0x2f,0x64,0x65,0x6e,0x73,0x65,0x5f,0x31,0x5f,0x32,
 0x2f,0x42,0x69,0x61,0x73,0x41,0x64,0x64,0x00,0x00,0x00,0x00,
 0x02,0x00,0x00,0x00,0x01,0x00,0x00,0x00,0x10,0x00,0x00,0x00,
 0xaa,0xf8,0xff,0xff,0x00,0x00,0x00,0x01,0x18,0x00,0x00,0x00,
 0x20,0x00,0x00,0x00,0x3c,0x00,0x00,0x00,0x08,0x00,0x00,0x00,
 0x00,0x00,0x00,0x09,0x88,0x00,0x00,0x00,0x02,0x00,0x00,0x00,
 0xff,0xff,0xff,0xff,0x20,0x00,0x00,0x00,0x94,0xf8,0xff,0xff,
 0x08,0x00,0x00,0x00,0x10,0x00,0x00,0x00,0x01,0x00,0x00,0x00,
 0x80,0xff,0xff,0xff,0xff,0xff,0xff,0xff,0x01,0x00,0x00,0x00,
 0xe7,0xf4,0xae,0x3c,0x52,0x00,0x00,0x00,0x73,0x65,0x71,0x75,
 0x65,0x6e,0x74,0x69,0x61,0x6c,0x5f,0x31,0x2f,0x64,0x65,0x6e,
 0x73,0x65,0x5f,0x31,0x2f,0x4d,0x61,0x74,0x4d,0x75,0x6c,0x3b,
 0x73,0x65,0x71,0x75,0x65,0x6e,0x74,0x69,0x61,0x6c,0x5f,0x31,
 0x2f,0x64,0x65,0x6e,0x73,0x65,0x5f,0x31,0x2f,0x52,0x65,0x6c,
 0x75,0x3b,0x73,0x65,0x71,0x75,0x65,0x6e,0x74,0x69,0x61,0x6c,
 0x5f,0x31,0x2f,0x64,0x65,0x6e,0x73,0x65,0x5f,0x31,0x2f,0x42,
 0x69,0x61,0x73,0x41,0x64,0x64,0x00,0x00,0x02,0x00,0x00,0x00,
 0x01,0x00,0x00,0x00,0x20,0x00,0x00,0x00,0xce,0xf9,0xff,0xff,
 0x00,0x00,0x00,0x01,0x14,0x00,0x00,0x00,0xa8,0x01,0x00,0x00,
 0x07,0x00,0x00,0x00,0x00,0x00,0x00,0x09,0xb4,0x01,0x00,0x00,
 0x34,0xf9,0xff,0xff,0x08,0x00,0x00,0x00,0x0c,0x01,0x00,0x00,
 0x20,0x00,0x00,0x00,0x00,0x00,0x00,0x00,0x00,0x00,0x00,0x00,
 0x00,0x00,0x00,0x00,0x00,0x00,0x00,0x00,0x00,0x00,0x00,0x00,
 0x00,0x00,0x00,0x00,0x00,0x00,0x00,0x00,0x00,0x00,0x00,0x00,
 0x00,0x00,0x00,0x00,0x00,0x00,0x00,0x00,0x00,0x00,0x00,0x00,
 0x00,0x00,0x00,0x00,0x00,0x00,0x00,0x00,0x00,0x00,0x00,0x00,
 0x00,0x00,0x00,0x00,0x00,0x00,0x00,0x00,0x00,0x00,0x00,0x00,
 0x00,0x00,0x00,0x00,0x00,0x00,0x00,0x00,0x00,0x00,0x00,0x00,
 0x00,0x00,0x00,0x00,0x00,0x00,0x00,0x00,0x00,0x00,0x00,0x00,
 0x00,0x00,0x00,0x00,0x00,0x00,0x00,0x00,0x00,0x00,0x00,0x00,
 0x00,0x00,0x00,0x00,0x00,0x00,0x00,0x00,0x00,0x00,0x00,0x00,
 0x00,0x00,0x00,0x00,0x00,0x00,0x00,0x00,0x00,0x00,0x00,0x00,
 0x00,0x00,0x00,0x00,0x00,0x00,0x00,0x00,0x00,0x00,0x00,0x00,
 0x00,0x00,0x00,0x00,0x00,0x00,0x00,0x00,0x00,0x00,0x00,0x00,
 0x00,0x00,0x00,0x00,0x00,0x00,0x00,0x00,0x00,0x00,0x00,0x00,
 0x00,0x00,0x00,0x00,0x00,0x00,0x00,0x00,0x00,0x00,0x00,0x00,
 0x00,0x00,0x00,0x00,0x00,0x00,0x00,0x00,0x00,0x00,0x00,0x00,
 0x00,0x00,0x00,0x00,0x00,0x00,0x00,0x00,0x00,0x00,0x00,0x00,
 0x00,0x00,0x00,0x00,0x00,0x00,0x00,0x00,0x00,0x00,0x00,0x00,
 0x00,0x00,0x00,0x00,0x00,0x00,0x00,0x00,0x00,0x00,0x00,0x00,
 0x00,0x00,0x00,0x00,0x00,0x00,0x00,0x00,0x00,0x00,0x00,0x00,
 0x00,0x00,0x00,0x00,0x00,0x00,0x00,0x00,0x00,0x00,0x00,0x00,
 0x00,0x00,0x00,0x00,0x00,0x00,0x00,0x00,0x00,0x00,0x00,0x00,
 0x20,0x00,0x00,0x00,0xae,0xbf,0x60,0x3b,0x1c,0xf2,0x0e,0x3b,
 0x68,0xc4,0x46,0x3b,0xba,0x32,0x43,0x3b,0x3c,0xbf,0x48,0x3b,
 0x11,0x01,0x3b,0x3b,0xb6,0x0e,0x6c,0x3b,0xcb,0x90,0x7e,0x3b,
 0x0d,0x43,0x5b,0x3b,0x26,0xb0,0x47,0x3b,0x34,0xab,0x8d,0x3b,
 0xc3,0xe2,0x41,0x3b,0x03,0xbf,0x5d,0x3b,0x9b,0x19,0x66,0x3b,
 0xee,0x4d,0x3b,0x3b,0x80,0xed,0x90,0x3b,0x66,0x14,0x2b,0x3b,
 0x23,0xeb,0x5b,0x3b,0xa4,0x95,0x54,0x3b,0xbe,0xa3,0x1e,0x3b,
 0x25,0x66,0x6c,0x3b,0xc7,0x56,0x64,0x3b,0x29,0x55,0x81,0x3b,
 0x7c,0xf7,0x61,0x3b,0x0d,0xaf,0x65,0x3b,0xfa,0xec,0x46,0x3b,
 0x63,0xfe,0x68,0x3b,0x25,0xa7,0x56,0x3b,0x5d,0x26,0x61,0x3b,
 0x94,0x54,0x17,0x3b,0xcd,0x94,0x5f,0x3b,0x31,0x5e,0x11,0x3b,
 0x12,0x00,0x00,0x00,0x74,0x66,0x6c,0x2e,0x70,0x73,0x65,0x75,
 0x64,0x6f,0x5f,0x71,0x63,0x6f,0x6e,0x73,0x74,0x35,0x00,0x00,
 0x02,0x00,0x00,0x00,0x20,0x00,0x00,0x00,0x14,0x00,0x00,0x00,
 0xa6,0xfb,0xff,0xff,0x00,0x00,0x00,0x01,0x14,0x00,0x00,0x00,
 0xa4,0x01,0x00,0x00,0x06,0x00,0x00,0x00,0x00,0x00,0x00,0x02,
 0xb0,0x01,0x00,0x00,0x0c,0xfb,0xff,0xff,0x08,0x00,0x00,0x00,
 0x08,0x01,0x00,0x00,0x20,0x00,0x00,0x00,0x00,0x00,0x00,0x00,
 0x00,0x00,0x00,0x00,0x00,0x00,0x00,0x00,0x00,0x00,0x00,0x00,
 0x00,0x00,0x00,0x00,0x00,0x00,0x00,0x00,0x00,0x00,0x00,0x00,
 0x00,0x00,0x00,0x00,0x00,0x00,0x00,0x00,0x00,0x00,0x00,0x00,
 0x00,0x00,0x00,0x00,0x00,0x00,0x00,0x00,0x00,0x00,0x00,0x00,
 0x00,0x00,0x00,0x00,0x00,0x00,0x00,0x00,0x00,0x00,0x00,0x00,
 0x00,0x00,0x00,0x00,0x00,0x00,0x00,0x00,0x00,0x00,0x00,0x00,
 0x00,0x00,0x00,0x00,0x00,0x00,0x00,0x00,0x00,0x00,0x00,0x00,
 0x00,0x00,0x00,0x00,0x00,0x00,0x00,0x00,0x00,0x00,0x00,0x00,
 0x00,0x00,0x00,0x00,0x00,0x00,0x00,0x00,0x00,0x00,0x00,0x00,
 0x00,0x00,0x00,0x00,0x00,0x00,0x00,0x00,0x00,0x00,0x00,0x00,
 0x00,0x00,0x00,0x00,0x00,0x00,0x00,0x00,0x00,0x00,0x00,0x00,
 0x00,0x00,0x00,0x00,0x00,0x00,0x00,0x00,0x00,0x00,0x00,0x00,
 0x00,0x00,0x00,0x00,0x00,0x00,0x00,0x00,0x00,0x00,0x00,0x00,
 0x00,0x00,0x00,0x00,0x00,0x00,0x00,0x00,0x00,0x00,0x00,0x00,
 0x00,0x00,0x00,0x00,0x00,0x00,0x00,0x00,0x00,0x00,0x00,0x00,
 0x00,0x00,0x00,0x00,0x00,0x00,0x00,0x00,0x00,0x00,0x00,0x00,
 0x00,0x00,0x00,0x00,0x00,0x00,0x00,0x00,0x00,0x00,0x00,0x00,
 0x00,0x00,0x00,0x00,0x00,0x00,0x00,0x00,0x00,0x00,0x00,0x00,
 0x00,0x00,0x00,0x00,0x00,0x00,0x00,0x00,0x00,0x00,0x00,0x00,
 0x00,0x00,0x00,0x00,0x00,0x00,0x00,0x00,0x00,0x00,0x00,0x00,
 0x00,0x00,0x00,0x00,0x00,0x00,0x00,0x00,0x00,0x00,0x00,0x00,
 0x20,0x00,0x00,0x00,0x7f,0x57,0xc9,0x38,0xef,0x0e,0x80,0x38,
 0xef,0x10,0xb2,0x38,0x6a,0xde,0xae,0x38,0xfa,0xd6,0xb3,0x38,
 0x38,0x87,0xa7,0x38,0x05,0x79,0xd3,0x38,0xa4,0x0d,0xe4,0x38,
 0x28,0x6d,0xc4,0x38,0x20,0xe4,0xb2,0x38,0x26,0xd4,0xfd,0x38,
 0x70,0xb1,0xad,0x38,0xe2,0xa6,0xc6,0x38,0xc0,0x22,0xce,0x38,
 0x13,0xcc,0xa7,0x38,0x7b,0xd5,0x01,0x39,0x20,0x43,0x99,0x38,
 0xbc,0x03,0xc5,0x38,0xc7,0x71,0xbe,0x38,0x24,0x1e,0x8e,0x38,
 0x59,0xc7,0xd3,0x38,0xdf,0x8e,0xcc,0x38,0xdd,0xb9,0xe7,0x38,
 0xd4,0x6e,0xca,0x38,0x4b,0xc3,0xcd,0x38,0x48,0x35,0xb2,0x38,
 0x61,0xba,0xd0,0x38,0x22,0x4c,0xc0,0x38,0x7c,0xb3,0xc9,0x38,
 0xda,0x91,0x87,0x38,0xbf,0x4b,0xc8,0x38,0x6f,0x3a,0x82,0x38,
 0x12,0x00,0x00,0x00,0x74,0x66,0x6c,0x2e,0x70,0x73,0x65,0x75,
 0x64,0x6f,0x5f,0x71,0x63,0x6f,0x6e,0x73,0x74,0x34,0x00,0x00,
 0x01,0x00,0x00,0x00,0x20,0x00,0x00,0x00,0x76,0xfd,0xff,0xff,
 0x00,0x00,0x00,0x01,0x14,0x00,0x00,0x00,0xe8,0x00,0x00,0x00,
 0x05,0x00,0x00,0x00,0x00,0x00,0x00,0x09,0xf4,0x00,0x00,0x00,
 0xdc,0xfc,0xff,0xff,0x08,0x00,0x00,0x00,0x8c,0x00,0x00,0x00,
 0x10,0x00,0x00,0x00,0x00,0x00,0x00,0x00,0x00,0x00,0x00,0x00,
 0x00,0x00,0x00,0x00,0x00,0x00,0x00,0x00,0x00,0x00,0x00,0x00,
 0x00,0x00,0x00,0x00,0x00,0x00,0x00,0x00,0x00,0x00,0x00,0x00,
 0x00,0x00,0x00,0x00,0x00,0x00,0x00,0x00,0x00,0x00,0x00,0x00,
 0x00,0x00,0x00,0x00,0x00,0x00,0x00,0x00,0x00,0x00,0x00,0x00,
 0x00,0x00,0x00,0x00,0x00,0x00,0x00,0x00,0x00,0x00,0x00,0x00,
 0x00,0x00,0x00,0x00,0x00,0x00,0x00,0x00,0x00,0x00,0x00,0x00,
 0x00,0x00,0x00,0x00,0x00,0x00,0x00,0x00,0x00,0x00,0x00,0x00,
 0x00,0x00,0x00,0x00,0x00,0x00,0x00,0x00,0x00,0x00,0x00,0x00,
 0x00,0x00,0x00,0x00,0x00,0x00,0x00,0x00,0x00,0x00,0x00,0x00,
 0x00,0x00,0x00,0x00,0x00,0x00,0x00,0x00,0x00,0x00,0x00,0x00,
 0x00,0x00,0x00,0x00,0x10,0x00,0x00,0x00,0x66,0xf9,0x57,0x3b,
 0x76,0x6c,0x80,0x3b,0x97,0xc6,0x8c,0x3b,0x3b,0xdf,0x58,0x3b,
 0xa9,0xa0,0x8c,0x3b,0x95,0xf4,0x6a,0x3b,0x84,0x6b,0xb9,0x3b,
 0xc1,0x40,0x86,0x3b,0xe5,0x71,0x69,0x3b,0x6c,0x96,0x5d,0x3b,
 0xdd,0xa3,0x6e,0x3b,0x33,0x4a,0x61,0x3b,0x07,0x42,0x5d,0x3b,
 0x50,0xc5,0x34,0x3b,0xd3,0x84,0x7a,0x3b,0x3a,0x16,0x80,0x3b,
 0x12,0x00,0x00,0x00,0x74,0x66,0x6c,0x2e,0x70,0x73,0x65,0x75,
 0x64,0x6f,0x5f,0x71,0x63,0x6f,0x6e,0x73,0x74,0x33,0x00,0x00,
 0x02,0x00,0x00,0x00,0x10,0x00,0x00,0x00,0x20,0x00,0x00,0x00,
 0x8e,0xfe,0xff,0xff,0x00,0x00,0x00,0x01,0x14,0x00,0x00,0x00,
 0xe4,0x00,0x00,0x00,0x04,0x00,0x00,0x00,0x00,0x00,0x00,0x02,
 0xf0,0x00,0x00,0x00,0xf4,0xfd,0xff,0xff,0x08,0x00,0x00,0x00,
 0x88,0x00,0x00,0x00,0x10,0x00,0x00,0x00,0x00,0x00,0x00,0x00,
 0x00,0x00,0x00,0x00,0x00,0x00,0x00,0x00,0x00,0x00,0x00,0x00,
 0x00,0x00,0x00,0x00,0x00,0x00,0x00,0x00,0x00,0x00,0x00,0x00,
 0x00,0x00,0x00,0x00,0x00,0x00,0x00,0x00,0x00,0x00,0x00,0x00,
 0x00,0x00,0x00,0x00,0x00,0x00,0x00,0x00,0x00,0x00,0x00,0x00,
 0x00,0x00,0x00,0x00,0x00,0x00,0x00,0x00,0x00,0x00,0x00,0x00,
 0x00,0x00,0x00,0x00,0x00,0x00,0x00,0x00,0x00,0x00,0x00,0x00,
 0x00,0x00,0x00,0x00,0x00,0x00,0x00,0x00,0x00,0x00,0x00,0x00,
 0x00,0x00,0x00,0x00,0x00,0x00,0x00,0x00,0x00,0x00,0x00,0x00,
 0x00,0x00,0x00,0x00,0x00,0x00,0x00,0x00,0x00,0x00,0x00,0x00,
 0x00,0x00,0x00,0x00,0x00,0x00,0x00,0x00,0x00,0x00,0x00,0x00,
 0x00,0x00,0x00,0x00,0x10,0x00,0x00,0x00,0x20,0x9a,0x93,0x38,
 0x27,0x89,0xaf,0x38,0x4e,0x6b,0xc0,0x38,0x33,0x37,0x94,0x38,
 0x76,0x37,0xc0,0x38,0x02,0x93,0xa0,0x38,0xeb,0x70,0xfd,0x38,
 0xe4,0x80,0xb7,0x38,0xbd,0x8a,0x9f,0x38,0x39,0x70,0x97,0x38,
 0xac,0x17,0xa3,0x38,0xf5,0xf7,0x99,0x38,0x8b,0x36,0x97,0x38,
 0x17,0x16,0x77,0x38,0xf0,0x35,0xab,0x38,0x48,0x13,0xaf,0x38,
 0x12,0x00,0x00,0x00,0x74,0x66,0x6c,0x2e,0x70,0x73,0x65,0x75,
 0x64,0x6f,0x5f,0x71,0x63,0x6f,0x6e,0x73,0x74,0x32,0x00,0x00,
 0x01,0x00,0x00,0x00,0x10,0x00,0x00,0x00,0x9e,0xff,0xff,0xff,
 0x00,0x00,0x00,0x01,0x14,0x00,0x00,0x00,0x30,0x00,0x00,0x00,
 0x03,0x00,0x00,0x00,0x00,0x00,0x00,0x09,0x3c,0x00,0x00,0x00,
 0x04,0xff,0xff,0xff,0x08,0x00,0x00,0x00,0x10,0x00,0x00,0x00,
 0x01,0x00,0x00,0x00,0x00,0x00,0x00,0x00,0x00,0x00,0x00,0x00,
 0x01,0x00,0x00,0x00,0x87,0xd2,0xc2,0x3b,0x12,0x00,0x00,0x00,
 0x74,0x66,0x6c,0x2e,0x70,0x73,0x65,0x75,0x64,0x6f,0x5f,0x71,
 0x63,0x6f,0x6e,0x73,0x74,0x31,0x00,0x00,0x02,0x00,0x00,0x00,
 0x01,0x00,0x00,0x00,0x10,0x00,0x00,0x00,0x00,0x00,0x16,0x00,
 0x1c,0x00,0x18,0x00,0x17,0x00,0x10,0x00,0x0c,0x00,0x08,0x00,
 0x00,0x00,0x00,0x00,0x00,0x00,0x07,0x00,0x16,0x00,0x00,0x00,
 0x00,0x00,0x00,0x01,0x14,0x00,0x00,0x00,0x30,0x00,0x00,0x00,
 0x02,0x00,0x00,0x00,0x00,0x00,0x00,0x02,0x3c,0x00,0x00,0x00,
 0x7c,0xff,0xff,0xff,0x08,0x00,0x00,0x00,0x10,0x00,0x00,0x00,
 0x01,0x00,0x00,0x00,0x00,0x00,0x00,0x00,0x00,0x00,0x00,0x00,
 0x01,0x00,0x00,0x00,0xf1,0x65,0x93,0x39,0x11,0x00,0x00,0x00,
 0x74,0x66,0x6c,0x2e,0x70,0x73,0x65,0x75,0x64,0x6f,0x5f,0x71,
 0x63,0x6f,0x6e,0x73,0x74,0x00,0x00,0x00,0x01,0x00,0x00,0x00,
 0x01,0x00,0x00,0x00,0x00,0x00,0x16,0x00,0x20,0x00,0x1c,0x00,
 0x1b,0x00,0x14,0x00,0x10,0x00,0x0c,0x00,0x00,0x00,0x00,0x00,
 0x08,0x00,0x07,0x00,0x16,0x00,0x00,0x00,0x00,0x00,0x00,0x01,
 0x18,0x00,0x00,0x00,0x2c,0x00,0x00,0x00,0x48,0x00,0x00,0x00,
 0x01,0x00,0x00,0x00,0x00,0x00,0x00,0x09,0x60,0x00,0x00,0x00,
 0x02,0x00,0x00,0x00,0xff,0xff,0xff,0xff,0x14,0x00,0x00,0x00,
 0x0c,0x00,0x0c,0x00,0x00,0x00,0x00,0x00,0x08,0x00,0x04,0x00,
 0x0c,0x00,0x00,0x00,0x08,0x00,0x00,0x00,0x10,0x00,0x00,0x00,
 0x01,0x00,0x00,0x00,0xf8,0xff,0xff,0xff,0xff,0xff,0xff,0xff,
 0x01,0x00,0x00,0x00,0x9b,0x56,0xe5,0x3c,0x1e,0x00,0x00,0x00,
 0x73,0x65,0x72,0x76,0x69,0x6e,0x67,0x5f,0x64,0x65,0x66,0x61,
 0x75,0x6c,0x74,0x5f,0x6b,0x65,0x72,0x61,0x73,0x5f,0x74,0x65,
 0x6e,0x73,0x6f,0x72,0x3a,0x30,0x00,0x00,0x02,0x00,0x00,0x00,
 0x01,0x00,0x00,0x00,0x14,0x00,0x00,0x00,0x02,0x00,0x00,0x00,
 0x24,0x00,0x00,0x00,0x04,0x00,0x00,0x00,0xf0,0xff,0xff,0xff,
 0x0e,0x00,0x00,0x00,0x02,0x00,0x00,0x00,0x00,0x00,0x00,0x0e,
 0x0c,0x00,0x10,0x00,0x0f,0x00,0x00,0x00,0x08,0x00,0x04,0x00,
 0x0c,0x00,0x00,0x00,0x09,0x00,0x00,0x00,0x04,0x00,0x00,0x00,
 0x00,0x00,0x00,0x09,
};
const unsigned int g_model_len=4888;
